TRT-8001-EntropyCalibration2
input_1: 3c010a14
conv1: 3cb266e4
bn_conv1: 3dc5ac49
activation_1/Relu: 3dbef3c8
block_1a_conv_1: 3dc2f42b
block_1a_conv_shortcut: 3c6fabeb
block_1a_bn_1: 3e019311
block_1a_bn_shortcut: 3cabcf39
activation_2/Relu: 3d01bd2c
block_1a_conv_2: 3d8e7dad
block_1a_bn_2: 3e09c700
add_1: 3dfb7fc3
activation_3/Relu: 3d8277b2
block_2a_conv_1: 3cd85dbd
block_2a_conv_shortcut: 3c01f960
block_2a_bn_1: 3d69e8d5
block_2a_bn_shortcut: 3d2330d2
activation_4/Relu: 3d5b347b
block_2a_conv_2: 3cc9e53f
block_2a_bn_2: 3d80b3d8
add_2: 3e3d90af
activation_5/Relu: 3d9ffbbc
block_3a_conv_1: 3c5bfd56
block_3a_conv_shortcut: 3bc44d5e
block_3a_bn_1: 3d6abecc
block_3a_bn_shortcut: 3cec9bfc
activation_6/Relu: 3d65e3f5
block_3a_conv_2: 3ccdeae2
block_3a_bn_2: 3dba7793
add_3: 3db79795
activation_7/Relu: 3d790705
block_4a_conv_1: 3c7fafca
block_4a_conv_shortcut: 3b348fb3
block_4a_bn_1: 3e3cfa37
block_4a_bn_shortcut: 3c029696
activation_8/Relu: 3dac6d31
block_4a_conv_2: 3d91c79b
block_4a_bn_2: 3e0a301b
add_4: 3e14e2cc
activation_9/Relu: 3dc20285
conv2d_bbox: 3e240c15
conv2d_cov: 3ecc348b
conv2d_cov/Sigmoid: 3bfee6c3
